{
  "version": "1.0",
  "truncation": null,
  "padding": null,
  "added_tokens": [
    {
      "id": 0,
      "content": "<pad>",
      "single_word": false,
      "lstrip": false,
      "rstrip": false,
      "normalized": false,
      "special": true
    },
    {
      "id": 1,
      "content": "<s>",
      "single_word": false,
      "lstrip": false,
      "rstrip": false,
      "normalized": false,
      "special": true
    },
    {
      "id": 2,
      "content": "</s>",
      "single_word": false,
      "lstrip": false,
      "rstrip": false,
      "normalized": false,
      "special": true
    },
    {
      "id": 3,
      "content": "<unk>",
      "single_word": false,
      "lstrip": false,
      "rstrip": false,
      "normalized": false,
      "special": true
    },
    {
      "id": 4,
      "content": "n",
      "single_word": false,
      "lstrip": false,
      "rstrip": false,
      "normalized": false,
      "special": false
    },
    {
      "id": 5,
      "content": "s",
      "single_word": false,
      "lstrip": false,
      "rstrip": false,
      "normalized": false,
      "special": false
    },
    {
      "id": 6,
      "content": "t",
      "single_word": false,
      "lstrip": false,
      "rstrip": false,
      "normalized": false,
      "special": false
    },
    {
      "id": 7,
      "content": "\u0259",
      "single_word": false,
      "lstrip": false,
      "rstrip": false,
      "normalized": false,
      "special": false
    },
    {
      "id": 8,
      "content": "l",
      "single_word": false,
      "lstrip": false,
      "rstrip": false,
      "normalized": false,
      "special": false
    },
    {
      "id": 9,
      "content": "a",
      "single_word": false,
      "lstrip": false,
      "rstrip": false,
      "normalized": false,
      "special": false
    },
    {
      "id": 10,
      "content": "i",
      "single_word": false,
      "lstrip": false,
      "rstrip": false,
      "normalized": false,
      "special": false
    },
    {
      "id": 11,
      "content": "k",
      "single_word": false,
      "lstrip": false,
      "rstrip": false,
      "normalized": false,
      "special": false
    },
    {
      "id": 12,
      "content": "d",
      "single_word": false,
      "lstrip": false,
      "rstrip": false,
      "normalized": false,
      "special": false
    },
    {
      "id": 13,
      "content": "m",
      "single_word": false,
      "lstrip": false,
      "rstrip": false,
      "normalized": false,
      "special": false
    },
    {
      "id": 14,
      "content": "\u025b",
      "single_word": false,
      "lstrip": false,
      "rstrip": false,
      "normalized": false,
      "special": false
    },
    {
      "id": 15,
      "content": "\u027e",
      "single_word": false,
      "lstrip": false,
      "rstrip": false,
      "normalized": false,
      "special": false
    },
    {
      "id": 16,
      "content": "e",
      "single_word": false,
      "lstrip": false,
      "rstrip": false,
      "normalized": false,
      "special": false
    },
    {
      "id": 17,
      "content": "\u026a",
      "single_word": false,
      "lstrip": false,
      "rstrip": false,
      "normalized": false,
      "special": false
    },
    {
      "id": 18,
      "content": "p",
      "single_word": false,
      "lstrip": false,
      "rstrip": false,
      "normalized": false,
      "special": false
    },
    {
      "id": 19,
      "content": "o",
      "single_word": false,
      "lstrip": false,
      "rstrip": false,
      "normalized": false,
      "special": false
    },
    {
      "id": 20,
      "content": "\u0250",
      "single_word": false,
      "lstrip": false,
      "rstrip": false,
      "normalized": false,
      "special": false
    },
    {
      "id": 21,
      "content": "z",
      "single_word": false,
      "lstrip": false,
      "rstrip": false,
      "normalized": false,
      "special": false
    },
    {
      "id": 22,
      "content": "\u00f0",
      "single_word": false,
      "lstrip": false,
      "rstrip": false,
      "normalized": false,
      "special": false
    },
    {
      "id": 23,
      "content": "f",
      "single_word": false,
      "lstrip": false,
      "rstrip": false,
      "normalized": false,
      "special": false
    },
    {
      "id": 24,
      "content": "j",
      "single_word": false,
      "lstrip": false,
      "rstrip": false,
      "normalized": false,
      "special": false
    },
    {
      "id": 25,
      "content": "v",
      "single_word": false,
      "lstrip": false,
      "rstrip": false,
      "normalized": false,
      "special": false
    },
    {
      "id": 26,
      "content": "b",
      "single_word": false,
      "lstrip": false,
      "rstrip": false,
      "normalized": false,
      "special": false
    },
    {
      "id": 27,
      "content": "\u0279",
      "single_word": false,
      "lstrip": false,
      "rstrip": false,
      "normalized": false,
      "special": false
    },
    {
      "id": 28,
      "content": "\u0281",
      "single_word": false,
      "lstrip": false,
      "rstrip": false,
      "normalized": false,
      "special": false
    },
    {
      "id": 29,
      "content": "\u028a",
      "single_word": false,
      "lstrip": false,
      "rstrip": false,
      "normalized": false,
      "special": false
    },
    {
      "id": 30,
      "content": "i\u02d0",
      "single_word": false,
      "lstrip": false,
      "rstrip": false,
      "normalized": false,
      "special": false
    },
    {
      "id": 31,
      "content": "r",
      "single_word": false,
      "lstrip": false,
      "rstrip": false,
      "normalized": false,
      "special": false
    },
    {
      "id": 32,
      "content": "w",
      "single_word": false,
      "lstrip": false,
      "rstrip": false,
      "normalized": false,
      "special": false
    },
    {
      "id": 33,
      "content": "\u028c",
      "single_word": false,
      "lstrip": false,
      "rstrip": false,
      "normalized": false,
      "special": false
    },
    {
      "id": 34,
      "content": "u",
      "single_word": false,
      "lstrip": false,
      "rstrip": false,
      "normalized": false,
      "special": false
    },
    {
      "id": 35,
      "content": "\u0261",
      "single_word": false,
      "lstrip": false,
      "rstrip": false,
      "normalized": false,
      "special": false
    },
    {
      "id": 36,
      "content": "\u00e6",
      "single_word": false,
      "lstrip": false,
      "rstrip": false,
      "normalized": false,
      "special": false
    },
    {
      "id": 37,
      "content": "a\u026a",
      "single_word": false,
      "lstrip": false,
      "rstrip": false,
      "normalized": false,
      "special": false
    },
    {
      "id": 38,
      "content": "\u0283",
      "single_word": false,
      "lstrip": false,
      "rstrip": false,
      "normalized": false,
      "special": false
    },
    {
      "id": 39,
      "content": "h",
      "single_word": false,
      "lstrip": false,
      "rstrip": false,
      "normalized": false,
      "special": false
    },
    {
      "id": 40,
      "content": "\u0254",
      "single_word": false,
      "lstrip": false,
      "rstrip": false,
      "normalized": false,
      "special": false
    },
    {
      "id": 41,
      "content": "\u0251\u02d0",
      "single_word": false,
      "lstrip": false,
      "rstrip": false,
      "normalized": false,
      "special": false
    },
    {
      "id": 42,
      "content": "\u014b",
      "single_word": false,
      "lstrip": false,
      "rstrip": false,
      "normalized": false,
      "special": false
    },
    {
      "id": 43,
      "content": "\u025a",
      "single_word": false,
      "lstrip": false,
      "rstrip": false,
      "normalized": false,
      "special": false
    },
    {
      "id": 44,
      "content": "e\u026a",
      "single_word": false,
      "lstrip": false,
      "rstrip": false,
      "normalized": false,
      "special": false
    },
    {
      "id": 45,
      "content": "\u03b2",
      "single_word": false,
      "lstrip": false,
      "rstrip": false,
      "normalized": false,
      "special": false
    },
    {
      "id": 46,
      "content": "u\u02d0",
      "single_word": false,
      "lstrip": false,
      "rstrip": false,
      "normalized": false,
      "special": false
    },
    {
      "id": 47,
      "content": "y",
      "single_word": false,
      "lstrip": false,
      "rstrip": false,
      "normalized": false,
      "special": false
    },
    {
      "id": 48,
      "content": "\u0251\u0303",
      "single_word": false,
      "lstrip": false,
      "rstrip": false,
      "normalized": false,
      "special": false
    },
    {
      "id": 49,
      "content": "o\u028a",
      "single_word": false,
      "lstrip": false,
      "rstrip": false,
      "normalized": false,
      "special": false
    },
    {
      "id": 50,
      "content": "\u1d7b",
      "single_word": false,
      "lstrip": false,
      "rstrip": false,
      "normalized": false,
      "special": false
    },
    {
      "id": 51,
      "content": "e\u02d0",
      "single_word": false,
      "lstrip": false,
      "rstrip": false,
      "normalized": false,
      "special": false
    },
    {
      "id": 52,
      "content": "\u03b8",
      "single_word": false,
      "lstrip": false,
      "rstrip": false,
      "normalized": false,
      "special": false
    },
    {
      "id": 53,
      "content": "a\u028a",
      "single_word": false,
      "lstrip": false,
      "rstrip": false,
      "normalized": false,
      "special": false
    },
    {
      "id": 54,
      "content": "ts",
      "single_word": false,
      "lstrip": false,
      "rstrip": false,
      "normalized": false,
      "special": false
    },
    {
      "id": 55,
      "content": "o\u02d0",
      "single_word": false,
      "lstrip": false,
      "rstrip": false,
      "normalized": false,
      "special": false
    },
    {
      "id": 56,
      "content": "\u0254\u0303",
      "single_word": false,
      "lstrip": false,
      "rstrip": false,
      "normalized": false,
      "special": false
    },
    {
      "id": 57,
      "content": "\u0263",
      "single_word": false,
      "lstrip": false,
      "rstrip": false,
      "normalized": false,
      "special": false
    },
    {
      "id": 58,
      "content": "\u025c",
      "single_word": false,
      "lstrip": false,
      "rstrip": false,
      "normalized": false,
      "special": false
    },
    {
      "id": 59,
      "content": "\u0251",
      "single_word": false,
      "lstrip": false,
      "rstrip": false,
      "normalized": false,
      "special": false
    },
    {
      "id": 60,
      "content": "d\u0292",
      "single_word": false,
      "lstrip": false,
      "rstrip": false,
      "normalized": false,
      "special": false
    },
    {
      "id": 61,
      "content": "\u0259l",
      "single_word": false,
      "lstrip": false,
      "rstrip": false,
      "normalized": false,
      "special": false
    },
    {
      "id": 62,
      "content": "x",
      "single_word": false,
      "lstrip": false,
      "rstrip": false,
      "normalized": false,
      "special": false
    },
    {
      "id": 63,
      "content": "\u025c\u02d0",
      "single_word": false,
      "lstrip": false,
      "rstrip": false,
      "normalized": false,
      "special": false
    },
    {
      "id": 64,
      "content": "\u00e7",
      "single_word": false,
      "lstrip": false,
      "rstrip": false,
      "normalized": false,
      "special": false
    },
    {
      "id": 65,
      "content": "\u0292",
      "single_word": false,
      "lstrip": false,
      "rstrip": false,
      "normalized": false,
      "special": false
    },
    {
      "id": 66,
      "content": "t\u0283",
      "single_word": false,
      "lstrip": false,
      "rstrip": false,
      "normalized": false,
      "special": false
    },
    {
      "id": 67,
      "content": "\u0254\u02d0",
      "single_word": false,
      "lstrip": false,
      "rstrip": false,
      "normalized": false,
      "special": false
    },
    {
      "id": 68,
      "content": "\u0251\u02d0\u0279",
      "single_word": false,
      "lstrip": false,
      "rstrip": false,
      "normalized": false,
      "special": false
    },
    {
      "id": 69,
      "content": "\u025b\u0303",
      "single_word": false,
      "lstrip": false,
      "rstrip": false,
      "normalized": false,
      "special": false
    },
    {
      "id": 70,
      "content": "\u028e",
      "single_word": false,
      "lstrip": false,
      "rstrip": false,
      "normalized": false,
      "special": false
    },
    {
      "id": 71,
      "content": "\u0254\u02d0\u0279",
      "single_word": false,
      "lstrip": false,
      "rstrip": false,
      "normalized": false,
      "special": false
    },
    {
      "id": 72,
      "content": "\u028b",
      "single_word": false,
      "lstrip": false,
      "rstrip": false,
      "normalized": false,
      "special": false
    },
    {
      "id": 73,
      "content": "a\u02d0",
      "single_word": false,
      "lstrip": false,
      "rstrip": false,
      "normalized": false,
      "special": false
    },
    {
      "id": 74,
      "content": "\u0255",
      "single_word": false,
      "lstrip": false,
      "rstrip": false,
      "normalized": false,
      "special": false
    },
    {
      "id": 75,
      "content": "\u0153",
      "single_word": false,
      "lstrip": false,
      "rstrip": false,
      "normalized": false,
      "special": false
    },
    {
      "id": 76,
      "content": "\u00f8",
      "single_word": false,
      "lstrip": false,
      "rstrip": false,
      "normalized": false,
      "special": false
    },
    {
      "id": 77,
      "content": "o\u02d0\u0279",
      "single_word": false,
      "lstrip": false,
      "rstrip": false,
      "normalized": false,
      "special": false
    },
    {
      "id": 78,
      "content": "\u0272",
      "single_word": false,
      "lstrip": false,
      "rstrip": false,
      "normalized": false,
      "special": false
    },
    {
      "id": 79,
      "content": "y\u02d0",
      "single_word": false,
      "lstrip": false,
      "rstrip": false,
      "normalized": false,
      "special": false
    },
    {
      "id": 80,
      "content": "\u0294",
      "single_word": false,
      "lstrip": false,
      "rstrip": false,
      "normalized": false,
      "special": false
    },
    {
      "id": 81,
      "content": "i\u0259",
      "single_word": false,
      "lstrip": false,
      "rstrip": false,
      "normalized": false,
      "special": false
    },
    {
      "id": 82,
      "content": "i5",
      "single_word": false,
      "lstrip": false,
      "rstrip": false,
      "normalized": false,
      "special": false
    },
    {
      "id": 83,
      "content": "s.",
      "single_word": false,
      "lstrip": false,
      "rstrip": false,
      "normalized": false,
      "special": false
    },
    {
      "id": 84,
      "content": "t\u0255",
      "single_word": false,
      "lstrip": false,
      "rstrip": false,
      "normalized": false,
      "special": false
    },
    {
      "id": 85,
      "content": "??",
      "single_word": false,
      "lstrip": false,
      "rstrip": false,
      "normalized": false,
      "special": false
    },
    {
      "id": 86,
      "content": "n\u02b2",
      "single_word": false,
      "lstrip": false,
      "rstrip": false,
      "normalized": false,
      "special": false
    },
    {
      "id": 87,
      "content": "\u025b\u02d0",
      "single_word": false,
      "lstrip": false,
      "rstrip": false,
      "normalized": false,
      "special": false
    },
    {
      "id": 88,
      "content": "\u0153\u0303",
      "single_word": false,
      "lstrip": false,
      "rstrip": false,
      "normalized": false,
      "special": false
    },
    {
      "id": 89,
      "content": "\u026d",
      "single_word": false,
      "lstrip": false,
      "rstrip": false,
      "normalized": false,
      "special": false
    },
    {
      "id": 90,
      "content": "\u0254\u00f8",
      "single_word": false,
      "lstrip": false,
      "rstrip": false,
      "normalized": false,
      "special": false
    },
    {
      "id": 91,
      "content": "\u0291",
      "single_word": false,
      "lstrip": false,
      "rstrip": false,
      "normalized": false,
      "special": false
    },
    {
      "id": 92,
      "content": "t\u02b2",
      "single_word": false,
      "lstrip": false,
      "rstrip": false,
      "normalized": false,
      "special": false
    },
    {
      "id": 93,
      "content": "\u0268",
      "single_word": false,
      "lstrip": false,
      "rstrip": false,
      "normalized": false,
      "special": false
    },
    {
      "id": 94,
      "content": "\u025b\u0279",
      "single_word": false,
      "lstrip": false,
      "rstrip": false,
      "normalized": false,
      "special": false
    },
    {
      "id": 95,
      "content": "ts.",
      "single_word": false,
      "lstrip": false,
      "rstrip": false,
      "normalized": false,
      "special": false
    },
    {
      "id": 96,
      "content": "r\u02b2",
      "single_word": false,
      "lstrip": false,
      "rstrip": false,
      "normalized": false,
      "special": false
    },
    {
      "id": 97,
      "content": "\u026a\u0279",
      "single_word": false,
      "lstrip": false,
      "rstrip": false,
      "normalized": false,
      "special": false
    },
    {
      "id": 98,
      "content": "\u026d\u02b2",
      "single_word": false,
      "lstrip": false,
      "rstrip": false,
      "normalized": false,
      "special": false
    },
    {
      "id": 99,
      "content": "i.5",
      "single_word": false,
      "lstrip": false,
      "rstrip": false,
      "normalized": false,
      "special": false
    },
    {
      "id": 100,
      "content": "\u0254\u026a",
      "single_word": false,
      "lstrip": false,
      "rstrip": false,
      "normalized": false,
      "special": false
    },
    {
      "id": 101,
      "content": "q",
      "single_word": false,
      "lstrip": false,
      "rstrip": false,
      "normalized": false,
      "special": false
    },
    {
      "id": 102,
      "content": "s\u02b2",
      "single_word": false,
      "lstrip": false,
      "rstrip": false,
      "normalized": false,
      "special": false
    },
    {
      "id": 103,
      "content": "u5",
      "single_word": false,
      "lstrip": false,
      "rstrip": false,
      "normalized": false,
      "special": false
    },
    {
      "id": 104,
      "content": "\u028a\u0279",
      "single_word": false,
      "lstrip": false,
      "rstrip": false,
      "normalized": false,
      "special": false
    },
    {
      "id": 105,
      "content": "i\u025c",
      "single_word": false,
      "lstrip": false,
      "rstrip": false,
      "normalized": false,
      "special": false
    },
    {
      "id": 106,
      "content": "a5",
      "single_word": false,
      "lstrip": false,
      "rstrip": false,
      "normalized": false,
      "special": false
    },
    {
      "id": 107,
      "content": "i\u025b5",
      "single_word": false,
      "lstrip": false,
      "rstrip": false,
      "normalized": false,
      "special": false
    },
    {
      "id": 108,
      "content": "\u00f8\u02d0",
      "single_word": false,
      "lstrip": false,
      "rstrip": false,
      "normalized": false,
      "special": false
    },
    {
      "id": 109,
      "content": "\u0295",
      "single_word": false,
      "lstrip": false,
      "rstrip": false,
      "normalized": false,
      "special": false
    },
    {
      "id": 110,
      "content": "ja",
      "single_word": false,
      "lstrip": false,
      "rstrip": false,
      "normalized": false,
      "special": false
    },
    {
      "id": 111,
      "content": "\u0259\u025c",
      "single_word": false,
      "lstrip": false,
      "rstrip": false,
      "normalized": false,
      "special": false
    },
    {
      "id": 112,
      "content": "th",
      "single_word": false,
      "lstrip": false,
      "rstrip": false,
      "normalized": false,
      "special": false
    },
    {
      "id": 113,
      "content": "\u02515",
      "single_word": false,
      "lstrip": false,
      "rstrip": false,
      "normalized": false,
      "special": false
    },
    {
      "id": 114,
      "content": "o\u026a",
      "single_word": false,
      "lstrip": false,
      "rstrip": false,
      "normalized": false,
      "special": false
    },
    {
      "id": 115,
      "content": "d\u02b2",
      "single_word": false,
      "lstrip": false,
      "rstrip": false,
      "normalized": false,
      "special": false
    },
    {
      "id": 116,
      "content": "\u02595",
      "single_word": false,
      "lstrip": false,
      "rstrip": false,
      "normalized": false,
      "special": false
    },
    {
      "id": 117,
      "content": "t\u0255h",
      "single_word": false,
      "lstrip": false,
      "rstrip": false,
      "normalized": false,
      "special": false
    },
    {
      "id": 118,
      "content": "ts.h",
      "single_word": false,
      "lstrip": false,
      "rstrip": false,
      "normalized": false,
      "special": false
    },
    {
      "id": 119,
      "content": "m\u02b2",
      "single_word": false,
      "lstrip": false,
      "rstrip": false,
      "normalized": false,
      "special": false
    },
    {
      "id": 120,
      "content": "\u026f",
      "single_word": false,
      "lstrip": false,
      "rstrip": false,
      "normalized": false,
      "special": false
    },
    {
      "id": 121,
      "content": "d\u0291",
      "single_word": false,
      "lstrip": false,
      "rstrip": false,
      "normalized": false,
      "special": false
    },
    {
      "id": 122,
      "content": "v\u02b2",
      "single_word": false,
      "lstrip": false,
      "rstrip": false,
      "normalized": false,
      "special": false
    },
    {
      "id": 123,
      "content": "e\u031e",
      "single_word": false,
      "lstrip": false,
      "rstrip": false,
      "normalized": false,
      "special": false
    },
    {
      "id": 124,
      "content": "t\u0283\u02b2",
      "single_word": false,
      "lstrip": false,
      "rstrip": false,
      "normalized": false,
      "special": false
    },
    {
      "id": 125,
      "content": "ei5",
      "single_word": false,
      "lstrip": false,
      "rstrip": false,
      "normalized": false,
      "special": false
    },
    {
      "id": 126,
      "content": "o5",
      "single_word": false,
      "lstrip": false,
      "rstrip": false,
      "normalized": false,
      "special": false
    },
    {
      "id": 127,
      "content": "on\u02615",
      "single_word": false,
      "lstrip": false,
      "rstrip": false,
      "normalized": false,
      "special": false
    },
    {
      "id": 128,
      "content": "\u0251u5",
      "single_word": false,
      "lstrip": false,
      "rstrip": false,
      "normalized": false,
      "special": false
    },
    {
      "id": 129,
      "content": "i\u02515",
      "single_word": false,
      "lstrip": false,
      "rstrip": false,
      "normalized": false,
      "special": false
    },
    {
      "id": 130,
      "content": "ai5",
      "single_word": false,
      "lstrip": false,
      "rstrip": false,
      "normalized": false,
      "special": false
    },
    {
      "id": 131,
      "content": "a\u026a\u025a",
      "single_word": false,
      "lstrip": false,
      "rstrip": false,
      "normalized": false,
      "special": false
    },
    {
      "id": 132,
      "content": "kh",
      "single_word": false,
      "lstrip": false,
      "rstrip": false,
      "normalized": false,
      "special": false
    },
    {
      "id": 133,
      "content": "\u02591",
      "single_word": false,
      "lstrip": false,
      "rstrip": false,
      "normalized": false,
      "special": false
    },
    {
      "id": 134,
      "content": "\u0290",
      "single_word": false,
      "lstrip": false,
      "rstrip": false,
      "normalized": false,
      "special": false
    },
    {
      "id": 135,
      "content": "i2",
      "single_word": false,
      "lstrip": false,
      "rstrip": false,
      "normalized": false,
      "special": false
    },
    {
      "id": 136,
      "content": "\u0289",
      "single_word": false,
      "lstrip": false,
      "rstrip": false,
      "normalized": false,
      "special": false
    },
    {
      "id": 137,
      "content": "\u0127",
      "single_word": false,
      "lstrip": false,
      "rstrip": false,
      "normalized": false,
      "special": false
    },
    {
      "id": 138,
      "content": "t[",
      "single_word": false,
      "lstrip": false,
      "rstrip": false,
      "normalized": false,
      "special": false
    },
    {
      "id": 139,
      "content": "a\u026a\u0259",
      "single_word": false,
      "lstrip": false,
      "rstrip": false,
      "normalized": false,
      "special": false
    },
    {
      "id": 140,
      "content": "\u02b2",
      "single_word": false,
      "lstrip": false,
      "rstrip": false,
      "normalized": false,
      "special": false
    },
    {
      "id": 141,
      "content": "ju",
      "single_word": false,
      "lstrip": false,
      "rstrip": false,
      "normalized": false,
      "special": false
    },
    {
      "id": 142,
      "content": "\u02592",
      "single_word": false,
      "lstrip": false,
      "rstrip": false,
      "normalized": false,
      "special": false
    },
    {
      "id": 143,
      "content": "u2",
      "single_word": false,
      "lstrip": false,
      "rstrip": false,
      "normalized": false,
      "special": false
    },
    {
      "id": 144,
      "content": "o\u025c",
      "single_word": false,
      "lstrip": false,
      "rstrip": false,
      "normalized": false,
      "special": false
    },
    {
      "id": 145,
      "content": "p\u02d0",
      "single_word": false,
      "lstrip": false,
      "rstrip": false,
      "normalized": false,
      "special": false
    },
    {
      "id": 146,
      "content": "i\u025b\u025c",
      "single_word": false,
      "lstrip": false,
      "rstrip": false,
      "normalized": false,
      "special": false
    },
    {
      "id": 147,
      "content": "ou5",
      "single_word": false,
      "lstrip": false,
      "rstrip": false,
      "normalized": false,
      "special": false
    },
    {
      "id": 148,
      "content": "y5",
      "single_word": false,
      "lstrip": false,
      "rstrip": false,
      "normalized": false,
      "special": false
    },
    {
      "id": 149,
      "content": "u\u025c",
      "single_word": false,
      "lstrip": false,
      "rstrip": false,
      "normalized": false,
      "special": false
    },
    {
      "id": 150,
      "content": "t\u02d0",
      "single_word": false,
      "lstrip": false,
      "rstrip": false,
      "normalized": false,
      "special": false
    },
    {
      "id": 151,
      "content": "uo5",
      "single_word": false,
      "lstrip": false,
      "rstrip": false,
      "normalized": false,
      "special": false
    },
    {
      "id": 152,
      "content": "d[",
      "single_word": false,
      "lstrip": false,
      "rstrip": false,
      "normalized": false,
      "special": false
    },
    {
      "id": 153,
      "content": "uo\u025c",
      "single_word": false,
      "lstrip": false,
      "rstrip": false,
      "normalized": false,
      "special": false
    },
    {
      "id": 154,
      "content": "tsh",
      "single_word": false,
      "lstrip": false,
      "rstrip": false,
      "normalized": false,
      "special": false
    },
    {
      "id": 155,
      "content": "\u0251\u025c",
      "single_word": false,
      "lstrip": false,
      "rstrip": false,
      "normalized": false,
      "special": false
    },
    {
      "id": 156,
      "content": "\u0275",
      "single_word": false,
      "lstrip": false,
      "rstrip": false,
      "normalized": false,
      "special": false
    },
    {
      "id": 157,
      "content": "i\u032a5",
      "single_word": false,
      "lstrip": false,
      "rstrip": false,
      "normalized": false,
      "special": false
    },
    {
      "id": 158,
      "content": "uei5",
      "single_word": false,
      "lstrip": false,
      "rstrip": false,
      "normalized": false,
      "special": false
    },
    {
      "id": 159,
      "content": "\u025f",
      "single_word": false,
      "lstrip": false,
      "rstrip": false,
      "normalized": false,
      "special": false
    },
    {
      "id": 160,
      "content": "a\u025c",
      "single_word": false,
      "lstrip": false,
      "rstrip": false,
      "normalized": false,
      "special": false
    },
    {
      "id": 161,
      "content": "\u0251\u0268",
      "single_word": false,
      "lstrip": false,
      "rstrip": false,
      "normalized": false,
      "special": false
    },
    {
      "id": 162,
      "content": "i.\u025c",
      "single_word": false,
      "lstrip": false,
      "rstrip": false,
      "normalized": false,
      "special": false
    },
    {
      "id": 163,
      "content": "e\u028a",
      "single_word": false,
      "lstrip": false,
      "rstrip": false,
      "normalized": false,
      "special": false
    },
    {
      "id": 164,
      "content": "o2",
      "single_word": false,
      "lstrip": false,
      "rstrip": false,
      "normalized": false,
      "special": false
    },
    {
      "id": 165,
      "content": "\u0250\u0303",
      "single_word": false,
      "lstrip": false,
      "rstrip": false,
      "normalized": false,
      "special": false
    },
    {
      "id": 166,
      "content": "\u00e4",
      "single_word": false,
      "lstrip": false,
      "rstrip": false,
      "normalized": false,
      "special": false
    },
    {
      "id": 167,
      "content": "p\u02b2",
      "single_word": false,
      "lstrip": false,
      "rstrip": false,
      "normalized": false,
      "special": false
    },
    {
      "id": 168,
      "content": "k\u02b2",
      "single_word": false,
      "lstrip": false,
      "rstrip": false,
      "normalized": false,
      "special": false
    },
    {
      "id": 169,
      "content": "n\u0329",
      "single_word": false,
      "lstrip": false,
      "rstrip": false,
      "normalized": false,
      "special": false
    },
    {
      "id": 170,
      "content": "\u0252",
      "single_word": false,
      "lstrip": false,
      "rstrip": false,
      "normalized": false,
      "special": false
    },
    {
      "id": 171,
      "content": "ph",
      "single_word": false,
      "lstrip": false,
      "rstrip": false,
      "normalized": false,
      "special": false
    },
    {
      "id": 172,
      "content": "\u0251u2",
      "single_word": false,
      "lstrip": false,
      "rstrip": false,
      "normalized": false,
      "special": false
    },
    {
      "id": 173,
      "content": "u\u0268",
      "single_word": false,
      "lstrip": false,
      "rstrip": false,
      "normalized": false,
      "special": false
    },
    {
      "id": 174,
      "content": "\u0259\u026a",
      "single_word": false,
      "lstrip": false,
      "rstrip": false,
      "normalized": false,
      "special": false
    },
    {
      "id": 175,
      "content": "\u026b",
      "single_word": false,
      "lstrip": false,
      "rstrip": false,
      "normalized": false,
      "special": false
    },
    {
      "id": 176,
      "content": "\u026c",
      "single_word": false,
      "lstrip": false,
      "rstrip": false,
      "normalized": false,
      "special": false
    },
    {
      "id": 177,
      "content": "y\u025c",
      "single_word": false,
      "lstrip": false,
      "rstrip": false,
      "normalized": false,
      "special": false
    },
    {
      "id": 178,
      "content": "b\u02b2",
      "single_word": false,
      "lstrip": false,
      "rstrip": false,
      "normalized": false,
      "special": false
    },
    {
      "id": 179,
      "content": "\u02512",
      "single_word": false,
      "lstrip": false,
      "rstrip": false,
      "normalized": false,
      "special": false
    },
    {
      "id": 180,
      "content": "s\u032a",
      "single_word": false,
      "lstrip": false,
      "rstrip": false,
      "normalized": false,
      "special": false
    },
    {
      "id": 181,
      "content": "ai\u025c",
      "single_word": false,
      "lstrip": false,
      "rstrip": false,
      "normalized": false,
      "special": false
    },
    {
      "id": 182,
      "content": "\u03c7",
      "single_word": false,
      "lstrip": false,
      "rstrip": false,
      "normalized": false,
      "special": false
    },
    {
      "id": 183,
      "content": "\u0250\u0303\u028a\u0303",
      "single_word": false,
      "lstrip": false,
      "rstrip": false,
      "normalized": false,
      "special": false
    },
    {
      "id": 184,
      "content": "1",
      "single_word": false,
      "lstrip": false,
      "rstrip": false,
      "normalized": false,
      "special": false
    },
    {
      "id": 185,
      "content": "\u02594",
      "single_word": false,
      "lstrip": false,
      "rstrip": false,
      "normalized": false,
      "special": false
    },
    {
      "id": 186,
      "content": "y\u00e6\u025c",
      "single_word": false,
      "lstrip": false,
      "rstrip": false,
      "normalized": false,
      "special": false
    },
    {
      "id": 187,
      "content": "a2",
      "single_word": false,
      "lstrip": false,
      "rstrip": false,
      "normalized": false,
      "special": false
    },
    {
      "id": 188,
      "content": "\u0268\u02d0",
      "single_word": false,
      "lstrip": false,
      "rstrip": false,
      "normalized": false,
      "special": false
    },
    {
      "id": 189,
      "content": "t\u032a",
      "single_word": false,
      "lstrip": false,
      "rstrip": false,
      "normalized": false,
      "special": false
    },
    {
      "id": 190,
      "content": "iou\u025c",
      "single_word": false,
      "lstrip": false,
      "rstrip": false,
      "normalized": false,
      "special": false
    },
    {
      "id": 191,
      "content": "u\u0303",
      "single_word": false,
      "lstrip": false,
      "rstrip": false,
      "normalized": false,
      "special": false
    },
    {
      "id": 192,
      "content": "on\u0261\u025c",
      "single_word": false,
      "lstrip": false,
      "rstrip": false,
      "normalized": false,
      "special": false
    },
    {
      "id": 193,
      "content": "a\u0268",
      "single_word": false,
      "lstrip": false,
      "rstrip": false,
      "normalized": false,
      "special": false
    },
    {
      "id": 194,
      "content": "i\u025b2",
      "single_word": false,
      "lstrip": false,
      "rstrip": false,
      "normalized": false,
      "special": false
    },
    {
      "id": 195,
      "content": "\u0254\u0268",
      "single_word": false,
      "lstrip": false,
      "rstrip": false,
      "normalized": false,
      "special": false
    },
    {
      "id": 196,
      "content": "\u0251u\u025c",
      "single_word": false,
      "lstrip": false,
      "rstrip": false,
      "normalized": false,
      "special": false
    },
    {
      "id": 197,
      "content": "o\u031e",
      "single_word": false,
      "lstrip": false,
      "rstrip": false,
      "normalized": false,
      "special": false
    },
    {
      "id": 198,
      "content": "ei2",
      "single_word": false,
      "lstrip": false,
      "rstrip": false,
      "normalized": false,
      "special": false
    },
    {
      "id": 199,
      "content": "iou2",
      "single_word": false,
      "lstrip": false,
      "rstrip": false,
      "normalized": false,
      "special": false
    },
    {
      "id": 200,
      "content": "c",
      "single_word": false,
      "lstrip": false,
      "rstrip": false,
      "normalized": false,
      "special": false
    },
    {
      "id": 201,
      "content": "k\u02d0",
      "single_word": false,
      "lstrip": false,
      "rstrip": false,
      "normalized": false,
      "special": false
    },
    {
      "id": 202,
      "content": "y2",
      "single_word": false,
      "lstrip": false,
      "rstrip": false,
      "normalized": false,
      "special": false
    },
    {
      "id": 203,
      "content": "\u0256",
      "single_word": false,
      "lstrip": false,
      "rstrip": false,
      "normalized": false,
      "special": false
    },
    {
      "id": 204,
      "content": "oe",
      "single_word": false,
      "lstrip": false,
      "rstrip": false,
      "normalized": false,
      "special": false
    },
    {
      "id": 205,
      "content": "d\u02e4",
      "single_word": false,
      "lstrip": false,
      "rstrip": false,
      "normalized": false,
      "special": false
    },
    {
      "id": 206,
      "content": "y\u025b\u025c",
      "single_word": false,
      "lstrip": false,
      "rstrip": false,
      "normalized": false,
      "special": false
    },
    {
      "id": 207,
      "content": "\u0259\u028a",
      "single_word": false,
      "lstrip": false,
      "rstrip": false,
      "normalized": false,
      "special": false
    },
    {
      "id": 208,
      "content": "S",
      "single_word": false,
      "lstrip": false,
      "rstrip": false,
      "normalized": false,
      "special": false
    },
    {
      "id": 209,
      "content": "\u0261\u02b2",
      "single_word": false,
      "lstrip": false,
      "rstrip": false,
      "normalized": false,
      "special": false
    },
    {
      "id": 210,
      "content": "on\u02612",
      "single_word": false,
      "lstrip": false,
      "rstrip": false,
      "normalized": false,
      "special": false
    },
    {
      "id": 211,
      "content": "u\"",
      "single_word": false,
      "lstrip": false,
      "rstrip": false,
      "normalized": false,
      "special": false
    },
    {
      "id": 212,
      "content": "ei\u025c",
      "single_word": false,
      "lstrip": false,
      "rstrip": false,
      "normalized": false,
      "special": false
    },
    {
      "id": 213,
      "content": "\u0288",
      "single_word": false,
      "lstrip": false,
      "rstrip": false,
      "normalized": false,
      "special": false
    },
    {
      "id": 214,
      "content": "\u026f\u1d5d",
      "single_word": false,
      "lstrip": false,
      "rstrip": false,
      "normalized": false,
      "special": false
    },
    {
      "id": 215,
      "content": "iou5",
      "single_word": false,
      "lstrip": false,
      "rstrip": false,
      "normalized": false,
      "special": false
    },
    {
      "id": 216,
      "content": "dZ",
      "single_word": false,
      "lstrip": false,
      "rstrip": false,
      "normalized": false,
      "special": false
    },
    {
      "id": 217,
      "content": "r\u031d\u030a",
      "single_word": false,
      "lstrip": false,
      "rstrip": false,
      "normalized": false,
      "special": false
    },
    {
      "id": 218,
      "content": "i.2",
      "single_word": false,
      "lstrip": false,
      "rstrip": false,
      "normalized": false,
      "special": false
    },
    {
      "id": 219,
      "content": "tS",
      "single_word": false,
      "lstrip": false,
      "rstrip": false,
      "normalized": false,
      "special": false
    },
    {
      "id": 220,
      "content": "s^",
      "single_word": false,
      "lstrip": false,
      "rstrip": false,
      "normalized": false,
      "special": false
    },
    {
      "id": 221,
      "content": "\u029d",
      "single_word": false,
      "lstrip": false,
      "rstrip": false,
      "normalized": false,
      "special": false
    },
    {
      "id": 222,
      "content": "y\u02595",
      "single_word": false,
      "lstrip": false,
      "rstrip": false,
      "normalized": false,
      "special": false
    },
    {
      "id": 223,
      "content": "i\u0251\u025c",
      "single_word": false,
      "lstrip": false,
      "rstrip": false,
      "normalized": false,
      "special": false
    },
    {
      "id": 224,
      "content": "u\u02595",
      "single_word": false,
      "lstrip": false,
      "rstrip": false,
      "normalized": false,
      "special": false
    },
    {
      "id": 225,
      "content": "pf",
      "single_word": false,
      "lstrip": false,
      "rstrip": false,
      "normalized": false,
      "special": false
    },
    {
      "id": 226,
      "content": "\u0268u",
      "single_word": false,
      "lstrip": false,
      "rstrip": false,
      "normalized": false,
      "special": false
    },
    {
      "id": 227,
      "content": "i\u02512",
      "single_word": false,
      "lstrip": false,
      "rstrip": false,
      "normalized": false,
      "special": false
    },
    {
      "id": 228,
      "content": "ou2",
      "single_word": false,
      "lstrip": false,
      "rstrip": false,
      "normalized": false,
      "special": false
    },
    {
      "id": 229,
      "content": "\u0259r2",
      "single_word": false,
      "lstrip": false,
      "rstrip": false,
      "normalized": false,
      "special": false
    },
    {
      "id": 230,
      "content": "f\u02b2",
      "single_word": false,
      "lstrip": false,
      "rstrip": false,
      "normalized": false,
      "special": false
    },
    {
      "id": 231,
      "content": "ai2",
      "single_word": false,
      "lstrip": false,
      "rstrip": false,
      "normalized": false,
      "special": false
    },
    {
      "id": 232,
      "content": "r\u031d",
      "single_word": false,
      "lstrip": false,
      "rstrip": false,
      "normalized": false,
      "special": false
    },
    {
      "id": 233,
      "content": "u\u0259\u025c",
      "single_word": false,
      "lstrip": false,
      "rstrip": false,
      "normalized": false,
      "special": false
    },
    {
      "id": 234,
      "content": "\u0273",
      "single_word": false,
      "lstrip": false,
      "rstrip": false,
      "normalized": false,
      "special": false
    },
    {
      "id": 235,
      "content": "\u0259\u0268",
      "single_word": false,
      "lstrip": false,
      "rstrip": false,
      "normalized": false,
      "special": false
    },
    {
      "id": 236,
      "content": "ua5",
      "single_word": false,
      "lstrip": false,
      "rstrip": false,
      "normalized": false,
      "special": false
    },
    {
      "id": 237,
      "content": "u\u026a",
      "single_word": false,
      "lstrip": false,
      "rstrip": false,
      "normalized": false,
      "special": false
    },
    {
      "id": 238,
      "content": "\u027d",
      "single_word": false,
      "lstrip": false,
      "rstrip": false,
      "normalized": false,
      "special": false
    },
    {
      "id": 239,
      "content": "b\u02d0",
      "single_word": false,
      "lstrip": false,
      "rstrip": false,
      "normalized": false,
      "special": false
    },
    {
      "id": 240,
      "content": "yu5",
      "single_word": false,
      "lstrip": false,
      "rstrip": false,
      "normalized": false,
      "special": false
    },
    {
      "id": 241,
      "content": "uo2",
      "single_word": false,
      "lstrip": false,
      "rstrip": false,
      "normalized": false,
      "special": false
    },
    {
      "id": 242,
      "content": "y\u025b5",
      "single_word": false,
      "lstrip": false,
      "rstrip": false,
      "normalized": false,
      "special": false
    },
    {
      "id": 243,
      "content": "l\u0329",
      "single_word": false,
      "lstrip": false,
      "rstrip": false,
      "normalized": false,
      "special": false
    },
    {
      "id": 244,
      "content": "\u027b",
      "single_word": false,
      "lstrip": false,
      "rstrip": false,
      "normalized": false,
      "special": false
    },
    {
      "id": 245,
      "content": "\u0259r\u025c",
      "single_word": false,
      "lstrip": false,
      "rstrip": false,
      "normalized": false,
      "special": false
    },
    {
      "id": 246,
      "content": "\u0282",
      "single_word": false,
      "lstrip": false,
      "rstrip": false,
      "normalized": false,
      "special": false
    },
    {
      "id": 247,
      "content": "i\u032a2",
      "single_word": false,
      "lstrip": false,
      "rstrip": false,
      "normalized": false,
      "special": false
    },
    {
      "id": 248,
      "content": "ou\u025c",
      "single_word": false,
      "lstrip": false,
      "rstrip": false,
      "normalized": false,
      "special": false
    },
    {
      "id": 249,
      "content": "ua\u025c",
      "single_word": false,
      "lstrip": false,
      "rstrip": false,
      "normalized": false,
      "special": false
    },
    {
      "id": 250,
      "content": "a.",
      "single_word": false,
      "lstrip": false,
      "rstrip": false,
      "normalized": false,
      "special": false
    },
    {
      "id": 251,
      "content": "a.\u02d0",
      "single_word": false,
      "lstrip": false,
      "rstrip": false,
      "normalized": false,
      "special": false
    },
    {
      "id": 252,
      "content": "y\u00e65",
      "single_word": false,
      "lstrip": false,
      "rstrip": false,
      "normalized": false,
      "special": false
    },
    {
      "id": 253,
      "content": "d\u02d0",
      "single_word": false,
      "lstrip": false,
      "rstrip": false,
      "normalized": false,
      "special": false
    },
    {
      "id": 254,
      "content": "r\u0329",
      "single_word": false,
      "lstrip": false,
      "rstrip": false,
      "normalized": false,
      "special": false
    },
    {
      "id": 255,
      "content": "ee",
      "single_word": false,
      "lstrip": false,
      "rstrip": false,
      "normalized": false,
      "special": false
    },
    {
      "id": 256,
      "content": "\u026au",
      "single_word": false,
      "lstrip": false,
      "rstrip": false,
      "normalized": false,
      "special": false
    },
    {
      "id": 257,
      "content": "\u0259r5",
      "single_word": false,
      "lstrip": false,
      "rstrip": false,
      "normalized": false,
      "special": false
    },
    {
      "id": 258,
      "content": "i\u032a\u025c",
      "single_word": false,
      "lstrip": false,
      "rstrip": false,
      "normalized": false,
      "special": false
    },
    {
      "id": 259,
      "content": "\u00e6i",
      "single_word": false,
      "lstrip": false,
      "rstrip": false,
      "normalized": false,
      "special": false
    },
    {
      "id": 260,
      "content": "u:",
      "single_word": false,
      "lstrip": false,
      "rstrip": false,
      "normalized": false,
      "special": false
    },
    {
      "id": 261,
      "content": "i.\u02d0",
      "single_word": false,
      "lstrip": false,
      "rstrip": false,
      "normalized": false,
      "special": false
    },
    {
      "id": 262,
      "content": "t^",
      "single_word": false,
      "lstrip": false,
      "rstrip": false,
      "normalized": false,
      "special": false
    },
    {
      "id": 263,
      "content": "o1",
      "single_word": false,
      "lstrip": false,
      "rstrip": false,
      "normalized": false,
      "special": false
    },
    {
      "id": 264,
      "content": "\u026a^",
      "single_word": false,
      "lstrip": false,
      "rstrip": false,
      "normalized": false,
      "special": false
    },
    {
      "id": 265,
      "content": "ai",
      "single_word": false,
      "lstrip": false,
      "rstrip": false,
      "normalized": false,
      "special": false
    },
    {
      "id": 266,
      "content": "uei\u025c",
      "single_word": false,
      "lstrip": false,
      "rstrip": false,
      "normalized": false,
      "special": false
    },
    {
      "id": 267,
      "content": "\u00e6\u02d0",
      "single_word": false,
      "lstrip": false,
      "rstrip": false,
      "normalized": false,
      "special": false
    },
    {
      "id": 268,
      "content": "\u025b\u026a",
      "single_word": false,
      "lstrip": false,
      "rstrip": false,
      "normalized": false,
      "special": false
    },
    {
      "id": 269,
      "content": "e\u0259",
      "single_word": false,
      "lstrip": false,
      "rstrip": false,
      "normalized": false,
      "special": false
    },
    {
      "id": 270,
      "content": "i.",
      "single_word": false,
      "lstrip": false,
      "rstrip": false,
      "normalized": false,
      "special": false
    },
    {
      "id": 271,
      "content": "\u0274",
      "single_word": false,
      "lstrip": false,
      "rstrip": false,
      "normalized": false,
      "special": false
    },
    {
      "id": 272,
      "content": "ie",
      "single_word": false,
      "lstrip": false,
      "rstrip": false,
      "normalized": false,
      "special": false
    },
    {
      "id": 273,
      "content": "ua2",
      "single_word": false,
      "lstrip": false,
      "rstrip": false,
      "normalized": false,
      "special": false
    },
    {
      "id": 274,
      "content": "\u02511",
      "single_word": false,
      "lstrip": false,
      "rstrip": false,
      "normalized": false,
      "special": false
    },
    {
      "id": 275,
      "content": "o4",
      "single_word": false,
      "lstrip": false,
      "rstrip": false,
      "normalized": false,
      "special": false
    },
    {
      "id": 276,
      "content": "t\u0283\u02d0",
      "single_word": false,
      "lstrip": false,
      "rstrip": false,
      "normalized": false,
      "special": false
    },
    {
      "id": 277,
      "content": "o:",
      "single_word": false,
      "lstrip": false,
      "rstrip": false,
      "normalized": false,
      "special": false
    },
    {
      "id": 278,
      "content": "\u0251:",
      "single_word": false,
      "lstrip": false,
      "rstrip": false,
      "normalized": false,
      "special": false
    },
    {
      "id": 279,
      "content": "u1",
      "single_word": false,
      "lstrip": false,
      "rstrip": false,
      "normalized": false,
      "special": false
    },
    {
      "id": 280,
      "content": "N",
      "single_word": false,
      "lstrip": false,
      "rstrip": false,
      "normalized": false,
      "special": false
    },
    {
      "id": 281,
      "content": "i\u032a1",
      "single_word": false,
      "lstrip": false,
      "rstrip": false,
      "normalized": false,
      "special": false
    },
    {
      "id": 282,
      "content": "au",
      "single_word": false,
      "lstrip": false,
      "rstrip": false,
      "normalized": false,
      "special": false
    },
    {
      "id": 283,
      "content": "y\u00e62",
      "single_word": false,
      "lstrip": false,
      "rstrip": false,
      "normalized": false,
      "special": false
    },
    {
      "id": 284,
      "content": "u.",
      "single_word": false,
      "lstrip": false,
      "rstrip": false,
      "normalized": false,
      "special": false
    },
    {
      "id": 285,
      "content": "q\u02d0",
      "single_word": false,
      "lstrip": false,
      "rstrip": false,
      "normalized": false,
      "special": false
    },
    {
      "id": 286,
      "content": "y\u0259\u025c",
      "single_word": false,
      "lstrip": false,
      "rstrip": false,
      "normalized": false,
      "special": false
    },
    {
      "id": 287,
      "content": "y:",
      "single_word": false,
      "lstrip": false,
      "rstrip": false,
      "normalized": false,
      "special": false
    },
    {
      "id": 288,
      "content": "k\u02b0",
      "single_word": false,
      "lstrip": false,
      "rstrip": false,
      "normalized": false,
      "special": false
    },
    {
      "id": 289,
      "content": "t\u0283\u02b0",
      "single_word": false,
      "lstrip": false,
      "rstrip": false,
      "normalized": false,
      "special": false
    },
    {
      "id": 290,
      "content": "i\u028a",
      "single_word": false,
      "lstrip": false,
      "rstrip": false,
      "normalized": false,
      "special": false
    },
    {
      "id": 291,
      "content": "sx",
      "single_word": false,
      "lstrip": false,
      "rstrip": false,
      "normalized": false,
      "special": false
    },
    {
      "id": 292,
      "content": "o\u0303",
      "single_word": false,
      "lstrip": false,
      "rstrip": false,
      "normalized": false,
      "special": false
    },
    {
      "id": 293,
      "content": "uo",
      "single_word": false,
      "lstrip": false,
      "rstrip": false,
      "normalized": false,
      "special": false
    },
    {
      "id": 294,
      "content": "t\u02b0",
      "single_word": false,
      "lstrip": false,
      "rstrip": false,
      "normalized": false,
      "special": false
    },
    {
      "id": 295,
      "content": "uai5",
      "single_word": false,
      "lstrip": false,
      "rstrip": false,
      "normalized": false,
      "special": false
    },
    {
      "id": 296,
      "content": "b\u02b0",
      "single_word": false,
      "lstrip": false,
      "rstrip": false,
      "normalized": false,
      "special": false
    },
    {
      "id": 297,
      "content": "u.\u02d0",
      "single_word": false,
      "lstrip": false,
      "rstrip": false,
      "normalized": false,
      "special": false
    },
    {
      "id": 298,
      "content": "u\u02592",
      "single_word": false,
      "lstrip": false,
      "rstrip": false,
      "normalized": false,
      "special": false
    },
    {
      "id": 299,
      "content": "\u028a\u0259",
      "single_word": false,
      "lstrip": false,
      "rstrip": false,
      "normalized": false,
      "special": false
    },
    {
      "id": 300,
      "content": "d^",
      "single_word": false,
      "lstrip": false,
      "rstrip": false,
      "normalized": false,
      "special": false
    },
    {
      "id": 301,
      "content": "s\u032a\u02d0",
      "single_word": false,
      "lstrip": false,
      "rstrip": false,
      "normalized": false,
      "special": false
    },
    {
      "id": 302,
      "content": "yi\u025c",
      "single_word": false,
      "lstrip": false,
      "rstrip": false,
      "normalized": false,
      "special": false
    },
    {
      "id": 303,
      "content": "d\u02b0",
      "single_word": false,
      "lstrip": false,
      "rstrip": false,
      "normalized": false,
      "special": false
    },
    {
      "id": 304,
      "content": "r.",
      "single_word": false,
      "lstrip": false,
      "rstrip": false,
      "normalized": false,
      "special": false
    },
    {
      "id": 305,
      "content": "oe:",
      "single_word": false,
      "lstrip": false,
      "rstrip": false,
      "normalized": false,
      "special": false
    },
    {
      "id": 306,
      "content": "i1",
      "single_word": false,
      "lstrip": false,
      "rstrip": false,
      "normalized": false,
      "special": false
    },
    {
      "id": 307,
      "content": "\u025f\u02d0",
      "single_word": false,
      "lstrip": false,
      "rstrip": false,
      "normalized": false,
      "special": false
    },
    {
      "id": 308,
      "content": "yu2",
      "single_word": false,
      "lstrip": false,
      "rstrip": false,
      "normalized": false,
      "special": false
    },
    {
      "id": 309,
      "content": "n\u02b2\u02b2",
      "single_word": false,
      "lstrip": false,
      "rstrip": false,
      "normalized": false,
      "special": false
    },
    {
      "id": 310,
      "content": "i\u032a4",
      "single_word": false,
      "lstrip": false,
      "rstrip": false,
      "normalized": false,
      "special": false
    },
    {
      "id": 311,
      "content": "uei2",
      "single_word": false,
      "lstrip": false,
      "rstrip": false,
      "normalized": false,
      "special": false
    },
    {
      "id": 312,
      "content": "ts\u02b2",
      "single_word": false,
      "lstrip": false,
      "rstrip": false,
      "normalized": false,
      "special": false
    },
    {
      "id": 313,
      "content": "\u0278",
      "single_word": false,
      "lstrip": false,
      "rstrip": false,
      "normalized": false,
      "special": false
    },
    {
      "id": 314,
      "content": "i\u0303",
      "single_word": false,
      "lstrip": false,
      "rstrip": false,
      "normalized": false,
      "special": false
    },
    {
      "id": 315,
      "content": "\u02514",
      "single_word": false,
      "lstrip": false,
      "rstrip": false,
      "normalized": false,
      "special": false
    },
    {
      "id": 316,
      "content": "t\u032a\u02d0",
      "single_word": false,
      "lstrip": false,
      "rstrip": false,
      "normalized": false,
      "special": false
    },
    {
      "id": 317,
      "content": "e\u0251",
      "single_word": false,
      "lstrip": false,
      "rstrip": false,
      "normalized": false,
      "special": false
    },
    {
      "id": 318,
      "content": "u4",
      "single_word": false,
      "lstrip": false,
      "rstrip": false,
      "normalized": false,
      "special": false
    },
    {
      "id": 319,
      "content": "e:",
      "single_word": false,
      "lstrip": false,
      "rstrip": false,
      "normalized": false,
      "special": false
    },
    {
      "id": 320,
      "content": "ts\u02d0",
      "single_word": false,
      "lstrip": false,
      "rstrip": false,
      "normalized": false,
      "special": false
    },
    {
      "id": 321,
      "content": "\u0288\u02b0",
      "single_word": false,
      "lstrip": false,
      "rstrip": false,
      "normalized": false,
      "special": false
    },
    {
      "id": 322,
      "content": "\u0261\u02b0",
      "single_word": false,
      "lstrip": false,
      "rstrip": false,
      "normalized": false,
      "special": false
    },
    {
      "id": 323,
      "content": "\u026f\u026f",
      "single_word": false,
      "lstrip": false,
      "rstrip": false,
      "normalized": false,
      "special": false
    },
    {
      "id": 324,
      "content": "d\u0292\u02b2",
      "single_word": false,
      "lstrip": false,
      "rstrip": false,
      "normalized": false,
      "special": false
    },
    {
      "id": 325,
      "content": "\u0282\u02b2",
      "single_word": false,
      "lstrip": false,
      "rstrip": false,
      "normalized": false,
      "special": false
    },
    {
      "id": 326,
      "content": "X",
      "single_word": false,
      "lstrip": false,
      "rstrip": false,
      "normalized": false,
      "special": false
    },
    {
      "id": 327,
      "content": "\u0275\u02d0",
      "single_word": false,
      "lstrip": false,
      "rstrip": false,
      "normalized": false,
      "special": false
    },
    {
      "id": 328,
      "content": "uai\u025c",
      "single_word": false,
      "lstrip": false,
      "rstrip": false,
      "normalized": false,
      "special": false
    },
    {
      "id": 329,
      "content": "t\u0255\u02b2",
      "single_word": false,
      "lstrip": false,
      "rstrip": false,
      "normalized": false,
      "special": false
    },
    {
      "id": 330,
      "content": "a\u0303",
      "single_word": false,
      "lstrip": false,
      "rstrip": false,
      "normalized": false,
      "special": false
    },
    {
      "id": 331,
      "content": "t^\u02d0",
      "single_word": false,
      "lstrip": false,
      "rstrip": false,
      "normalized": false,
      "special": false
    },
    {
      "id": 332,
      "content": "e\u0303\u02d0",
      "single_word": false,
      "lstrip": false,
      "rstrip": false,
      "normalized": false,
      "special": false
    },
    {
      "id": 333,
      "content": "y\u025b2",
      "single_word": false,
      "lstrip": false,
      "rstrip": false,
      "normalized": false,
      "special": false
    },
    {
      "id": 334,
      "content": "c\u02d0",
      "single_word": false,
      "lstrip": false,
      "rstrip": false,
      "normalized": false,
      "special": false
    },
    {
      "id": 335,
      "content": "i.1",
      "single_word": false,
      "lstrip": false,
      "rstrip": false,
      "normalized": false,
      "special": false
    },
    {
      "id": 336,
      "content": "\u025b\u028a",
      "single_word": false,
      "lstrip": false,
      "rstrip": false,
      "normalized": false,
      "special": false
    },
    {
      "id": 337,
      "content": "d\u02e4d\u02e4",
      "single_word": false,
      "lstrip": false,
      "rstrip": false,
      "normalized": false,
      "special": false
    },
    {
      "id": 338,
      "content": "d\u0292\u02d0",
      "single_word": false,
      "lstrip": false,
      "rstrip": false,
      "normalized": false,
      "special": false
    },
    {
      "id": 339,
      "content": "i4",
      "single_word": false,
      "lstrip": false,
      "rstrip": false,
      "normalized": false,
      "special": false
    },
    {
      "id": 340,
      "content": "\u0261\u02d0",
      "single_word": false,
      "lstrip": false,
      "rstrip": false,
      "normalized": false,
      "special": false
    },
    {
      "id": 341,
      "content": "yi",
      "single_word": false,
      "lstrip": false,
      "rstrip": false,
      "normalized": false,
      "special": false
    },
    {
      "id": 342,
      "content": "\u0255\u02b2",
      "single_word": false,
      "lstrip": false,
      "rstrip": false,
      "normalized": false,
      "special": false
    },
    {
      "id": 343,
      "content": "\u025f\u02b0",
      "single_word": false,
      "lstrip": false,
      "rstrip": false,
      "normalized": false,
      "special": false
    },
    {
      "id": 344,
      "content": "p\u02b0",
      "single_word": false,
      "lstrip": false,
      "rstrip": false,
      "normalized": false,
      "special": false
    },
    {
      "id": 345,
      "content": "d\u0291\u02b2",
      "single_word": false,
      "lstrip": false,
      "rstrip": false,
      "normalized": false,
      "special": false
    },
    {
      "id": 346,
      "content": "yu\u025c",
      "single_word": false,
      "lstrip": false,
      "rstrip": false,
      "normalized": false,
      "special": false
    },
    {
      "id": 347,
      "content": "ua1",
      "single_word": false,
      "lstrip": false,
      "rstrip": false,
      "normalized": false,
      "special": false
    },
    {
      "id": 348,
      "content": "ua4",
      "single_word": false,
      "lstrip": false,
      "rstrip": false,
      "normalized": false,
      "special": false
    },
    {
      "id": 349,
      "content": "\u00e6i\u02d0",
      "single_word": false,
      "lstrip": false,
      "rstrip": false,
      "normalized": false,
      "special": false
    },
    {
      "id": 350,
      "content": "\u0250\u0250",
      "single_word": false,
      "lstrip": false,
      "rstrip": false,
      "normalized": false,
      "special": false
    },
    {
      "id": 351,
      "content": "ui",
      "single_word": false,
      "lstrip": false,
      "rstrip": false,
      "normalized": false,
      "special": false
    },
    {
      "id": 352,
      "content": "iou1",
      "single_word": false,
      "lstrip": false,
      "rstrip": false,
      "normalized": false,
      "special": false
    },
    {
      "id": 353,
      "content": "\u028a\u02d0",
      "single_word": false,
      "lstrip": false,
      "rstrip": false,
      "normalized": false,
      "special": false
    },
    {
      "id": 354,
      "content": "a1",
      "single_word": false,
      "lstrip": false,
      "rstrip": false,
      "normalized": false,
      "special": false
    },
    {
      "id": 355,
      "content": "iou4",
      "single_word": false,
      "lstrip": false,
      "rstrip": false,
      "normalized": false,
      "special": false
    },
    {
      "id": 356,
      "content": "c\u02b0",
      "single_word": false,
      "lstrip": false,
      "rstrip": false,
      "normalized": false,
      "special": false
    },
    {
      "id": 357,
      "content": "i\u025b1",
      "single_word": false,
      "lstrip": false,
      "rstrip": false,
      "normalized": false,
      "special": false
    },
    {
      "id": 358,
      "content": "y\u02592",
      "single_word": false,
      "lstrip": false,
      "rstrip": false,
      "normalized": false,
      "special": false
    },
    {
      "id": 359,
      "content": "\u0256\u02b0",
      "single_word": false,
      "lstrip": false,
      "rstrip": false,
      "normalized": false,
      "special": false
    },
    {
      "id": 360,
      "content": "e\u0303",
      "single_word": false,
      "lstrip": false,
      "rstrip": false,
      "normalized": false,
      "special": false
    },
    {
      "id": 361,
      "content": "\u0292\u02b2",
      "single_word": false,
      "lstrip": false,
      "rstrip": false,
      "normalized": false,
      "special": false
    },
    {
      "id": 362,
      "content": "\u00e4\u00e4",
      "single_word": false,
      "lstrip": false,
      "rstrip": false,
      "normalized": false,
      "special": false
    },
    {
      "id": 363,
      "content": "\u0259r4",
      "single_word": false,
      "lstrip": false,
      "rstrip": false,
      "normalized": false,
      "special": false
    },
    {
      "id": 364,
      "content": "i\u02d0\u02d0",
      "single_word": false,
      "lstrip": false,
      "rstrip": false,
      "normalized": false,
      "special": false
    },
    {
      "id": 365,
      "content": "\u026a\u02d0",
      "single_word": false,
      "lstrip": false,
      "rstrip": false,
      "normalized": false,
      "special": false
    },
    {
      "id": 366,
      "content": "i\u02511",
      "single_word": false,
      "lstrip": false,
      "rstrip": false,
      "normalized": false,
      "special": false
    },
    {
      "id": 367,
      "content": "\u0259r1",
      "single_word": false,
      "lstrip": false,
      "rstrip": false,
      "normalized": false,
      "special": false
    },
    {
      "id": 368,
      "content": "\u0153\u02d0",
      "single_word": false,
      "lstrip": false,
      "rstrip": false,
      "normalized": false,
      "special": false
    },
    {
      "id": 369,
      "content": "\u00f8i",
      "single_word": false,
      "lstrip": false,
      "rstrip": false,
      "normalized": false,
      "special": false
    },
    {
      "id": 370,
      "content": "\u026au\u02d0",
      "single_word": false,
      "lstrip": false,
      "rstrip": false,
      "normalized": false,
      "special": false
    },
    {
      "id": 371,
      "content": "c\u02b0c\u02b0",
      "single_word": false,
      "lstrip": false,
      "rstrip": false,
      "normalized": false,
      "special": false
    },
    {
      "id": 372,
      "content": "\u0259\u02d01",
      "single_word": false,
      "lstrip": false,
      "rstrip": false,
      "normalized": false,
      "special": false
    },
    {
      "id": 373,
      "content": "i\u02d01",
      "single_word": false,
      "lstrip": false,
      "rstrip": false,
      "normalized": false,
      "special": false
    },
    {
      "id": 374,
      "content": "\u0169",
      "single_word": false,
      "lstrip": false,
      "rstrip": false,
      "normalized": false,
      "special": false
    },
    {
      "id": 375,
      "content": "k\u02b0\u02d0",
      "single_word": false,
      "lstrip": false,
      "rstrip": false,
      "normalized": false,
      "special": false
    },
    {
      "id": 376,
      "content": "o\u031eo\u031e",
      "single_word": false,
      "lstrip": false,
      "rstrip": false,
      "normalized": false,
      "special": false
    },
    {
      "id": 377,
      "content": "x\u02b2",
      "single_word": false,
      "lstrip": false,
      "rstrip": false,
      "normalized": false,
      "special": false
    },
    {
      "id": 378,
      "content": "ou1",
      "single_word": false,
      "lstrip": false,
      "rstrip": false,
      "normalized": false,
      "special": false
    },
    {
      "id": 379,
      "content": "i\u025b4",
      "single_word": false,
      "lstrip": false,
      "rstrip": false,
      "normalized": false,
      "special": false
    },
    {
      "id": 380,
      "content": "e\u031ee\u031e",
      "single_word": false,
      "lstrip": false,
      "rstrip": false,
      "normalized": false,
      "special": false
    },
    {
      "id": 381,
      "content": "y1",
      "single_word": false,
      "lstrip": false,
      "rstrip": false,
      "normalized": false,
      "special": false
    },
    {
      "id": 382,
      "content": "dz\u02d0",
      "single_word": false,
      "lstrip": false,
      "rstrip": false,
      "normalized": false,
      "special": false
    },
    {
      "id": 383,
      "content": "d\u02b2\u02b2",
      "single_word": false,
      "lstrip": false,
      "rstrip": false,
      "normalized": false,
      "special": false
    },
    {
      "id": 384,
      "content": "d\u02b0\u02d0",
      "single_word": false,
      "lstrip": false,
      "rstrip": false,
      "normalized": false,
      "special": false
    },
    {
      "id": 385,
      "content": "\u026f\u1d5d\u026f\u1d5d",
      "single_word": false,
      "lstrip": false,
      "rstrip": false,
      "normalized": false,
      "special": false
    },
    {
      "id": 386,
      "content": "l\u02d0",
      "single_word": false,
      "lstrip": false,
      "rstrip": false,
      "normalized": false,
      "special": false
    },
    {
      "id": 387,
      "content": "uo1",
      "single_word": false,
      "lstrip": false,
      "rstrip": false,
      "normalized": false,
      "special": false
    },
    {
      "id": 388,
      "content": "i.4",
      "single_word": false,
      "lstrip": false,
      "rstrip": false,
      "normalized": false,
      "special": false
    },
    {
      "id": 389,
      "content": "i:",
      "single_word": false,
      "lstrip": false,
      "rstrip": false,
      "normalized": false,
      "special": false
    },
    {
      "id": 390,
      "content": "y\u025b5\u02b2",
      "single_word": false,
      "lstrip": false,
      "rstrip": false,
      "normalized": false,
      "special": false
    },
    {
      "id": 391,
      "content": "a4",
      "single_word": false,
      "lstrip": false,
      "rstrip": false,
      "normalized": false,
      "special": false
    }
  ],
  "normalizer": null,
  "pre_tokenizer": null,
  "post_processor": null,
  "decoder": {
    "type": "CTC",
    "pad_token": "<pad>",
    "word_delimiter_token": "|",
    "cleanup": true
  },
  "model": {
    "type": "Unigram",
    "unk_id": 3,
    "vocab": [
      [
        "<pad>",
        0.0
      ],
      [
        "<s>",
        0.0
      ],
      [
        "</s>",
        0.0
      ],
      [
        "<unk>",
        0.0
      ],
      [
        "n",
        0.0
      ],
      [
        "s",
        0.0
      ],
      [
        "t",
        0.0
      ],
      [
        "\u0259",
        0.0
      ],
      [
        "l",
        0.0
      ],
      [
        "a",
        0.0
      ],
      [
        "i",
        0.0
      ],
      [
        "k",
        0.0
      ],
      [
        "d",
        0.0
      ],
      [
        "m",
        0.0
      ],
      [
        "\u025b",
        0.0
      ],
      [
        "\u027e",
        0.0
      ],
      [
        "e",
        0.0
      ],
      [
        "\u026a",
        0.0
      ],
      [
        "p",
        0.0
      ],
      [
        "o",
        0.0
      ],
      [
        "\u0250",
        0.0
      ],
      [
        "z",
        0.0
      ],
      [
        "\u00f0",
        0.0
      ],
      [
        "f",
        0.0
      ],
      [
        "j",
        0.0
      ],
      [
        "v",
        0.0
      ],
      [
        "b",
        0.0
      ],
      [
        "\u0279",
        0.0
      ],
      [
        "\u0281",
        0.0
      ],
      [
        "\u028a",
        0.0
      ],
      [
        "i\u02d0",
        0.0
      ],
      [
        "r",
        0.0
      ],
      [
        "w",
        0.0
      ],
      [
        "\u028c",
        0.0
      ],
      [
        "u",
        0.0
      ],
      [
        "\u0261",
        0.0
      ],
      [
        "\u00e6",
        0.0
      ],
      [
        "a\u026a",
        0.0
      ],
      [
        "\u0283",
        0.0
      ],
      [
        "h",
        0.0
      ],
      [
        "\u0254",
        0.0
      ],
      [
        "\u0251\u02d0",
        0.0
      ],
      [
        "\u014b",
        0.0
      ],
      [
        "\u025a",
        0.0
      ],
      [
        "e\u026a",
        0.0
      ],
      [
        "\u03b2",
        0.0
      ],
      [
        "u\u02d0",
        0.0
      ],
      [
        "y",
        0.0
      ],
      [
        "\u0251\u0303",
        0.0
      ],
      [
        "o\u028a",
        0.0
      ],
      [
        "\u1d7b",
        0.0
      ],
      [
        "e\u02d0",
        0.0
      ],
      [
        "\u03b8",
        0.0
      ],
      [
        "a\u028a",
        0.0
      ],
      [
        "ts",
        0.0
      ],
      [
        "o\u02d0",
        0.0
      ],
      [
        "\u0254\u0303",
        0.0
      ],
      [
        "\u0263",
        0.0
      ],
      [
        "\u025c",
        0.0
      ],
      [
        "\u0251",
        0.0
      ],
      [
        "d\u0292",
        0.0
      ],
      [
        "\u0259l",
        0.0
      ],
      [
        "x",
        0.0
      ],
      [
        "\u025c\u02d0",
        0.0
      ],
      [
        "\u00e7",
        0.0
      ],
      [
        "\u0292",
        0.0
      ],
      [
        "t\u0283",
        0.0
      ],
      [
        "\u0254\u02d0",
        0.0
      ],
      [
        "\u0251\u02d0\u0279",
        0.0
      ],
      [
        "\u025b\u0303",
        0.0
      ],
      [
        "\u028e",
        0.0
      ],
      [
        "\u0254\u02d0\u0279",
        0.0
      ],
      [
        "\u028b",
        0.0
      ],
      [
        "a\u02d0",
        0.0
      ],
      [
        "\u0255",
        0.0
      ],
      [
        "\u0153",
        0.0
      ],
      [
        "\u00f8",
        0.0
      ],
      [
        "o\u02d0\u0279",
        0.0
      ],
      [
        "\u0272",
        0.0
      ],
      [
        "y\u02d0",
        0.0
      ],
      [
        "\u0294",
        0.0
      ],
      [
        "i\u0259",
        0.0
      ],
      [
        "i5",
        0.0
      ],
      [
        "s.",
        0.0
      ],
      [
        "t\u0255",
        0.0
      ],
      [
        "??",
        0.0
      ],
      [
        "n\u02b2",
        0.0
      ],
      [
        "\u025b\u02d0",
        0.0
      ],
      [
        "\u0153\u0303",
        0.0
      ],
      [
        "\u026d",
        0.0
      ],
      [
        "\u0254\u00f8",
        0.0
      ],
      [
        "\u0291",
        0.0
      ],
      [
        "t\u02b2",
        0.0
      ],
      [
        "\u0268",
        0.0
      ],
      [
        "\u025b\u0279",
        0.0
      ],
      [
        "ts.",
        0.0
      ],
      [
        "r\u02b2",
        0.0
      ],
      [
        "\u026a\u0279",
        0.0
      ],
      [
        "\u026d\u02b2",
        0.0
      ],
      [
        "i.5",
        0.0
      ],
      [
        "\u0254\u026a",
        0.0
      ],
      [
        "q",
        0.0
      ],
      [
        "s\u02b2",
        0.0
      ],
      [
        "u5",
        0.0
      ],
      [
        "\u028a\u0279",
        0.0
      ],
      [
        "i\u025c",
        0.0
      ],
      [
        "a5",
        0.0
      ],
      [
        "i\u025b5",
        0.0
      ],
      [
        "\u00f8\u02d0",
        0.0
      ],
      [
        "\u0295",
        0.0
      ],
      [
        "ja",
        0.0
      ],
      [
        "\u0259\u025c",
        0.0
      ],
      [
        "th",
        0.0
      ],
      [
        "\u02515",
        0.0
      ],
      [
        "o\u026a",
        0.0
      ],
      [
        "d\u02b2",
        0.0
      ],
      [
        "\u02595",
        0.0
      ],
      [
        "t\u0255h",
        0.0
      ],
      [
        "ts.h",
        0.0
      ],
      [
        "m\u02b2",
        0.0
      ],
      [
        "\u026f",
        0.0
      ],
      [
        "d\u0291",
        0.0
      ],
      [
        "v\u02b2",
        0.0
      ],
      [
        "e\u031e",
        0.0
      ],
      [
        "t\u0283\u02b2",
        0.0
      ],
      [
        "ei5",
        0.0
      ],
      [
        "o5",
        0.0
      ],
      [
        "on\u02615",
        0.0
      ],
      [
        "\u0251u5",
        0.0
      ],
      [
        "i\u02515",
        0.0
      ],
      [
        "ai5",
        0.0
      ],
      [
        "a\u026a\u025a",
        0.0
      ],
      [
        "kh",
        0.0
      ],
      [
        "\u02591",
        0.0
      ],
      [
        "\u0290",
        0.0
      ],
      [
        "i2",
        0.0
      ],
      [
        "\u0289",
        0.0
      ],
      [
        "\u0127",
        0.0
      ],
      [
        "t[",
        0.0
      ],
      [
        "a\u026a\u0259",
        0.0
      ],
      [
        "\u02b2",
        0.0
      ],
      [
        "ju",
        0.0
      ],
      [
        "\u02592",
        0.0
      ],
      [
        "u2",
        0.0
      ],
      [
        "o\u025c",
        0.0
      ],
      [
        "p\u02d0",
        0.0
      ],
      [
        "i\u025b\u025c",
        0.0
      ],
      [
        "ou5",
        0.0
      ],
      [
        "y5",
        0.0
      ],
      [
        "u\u025c",
        0.0
      ],
      [
        "t\u02d0",
        0.0
      ],
      [
        "uo5",
        0.0
      ],
      [
        "d[",
        0.0
      ],
      [
        "uo\u025c",
        0.0
      ],
      [
        "tsh",
        0.0
      ],
      [
        "\u0251\u025c",
        0.0
      ],
      [
        "\u0275",
        0.0
      ],
      [
        "i\u032a5",
        0.0
      ],
      [
        "uei5",
        0.0
      ],
      [
        "\u025f",
        0.0
      ],
      [
        "a\u025c",
        0.0
      ],
      [
        "\u0251\u0268",
        0.0
      ],
      [
        "i.\u025c",
        0.0
      ],
      [
        "e\u028a",
        0.0
      ],
      [
        "o2",
        0.0
      ],
      [
        "\u0250\u0303",
        0.0
      ],
      [
        "\u00e4",
        0.0
      ],
      [
        "p\u02b2",
        0.0
      ],
      [
        "k\u02b2",
        0.0
      ],
      [
        "n\u0329",
        0.0
      ],
      [
        "\u0252",
        0.0
      ],
      [
        "ph",
        0.0
      ],
      [
        "\u0251u2",
        0.0
      ],
      [
        "u\u0268",
        0.0
      ],
      [
        "\u0259\u026a",
        0.0
      ],
      [
        "\u026b",
        0.0
      ],
      [
        "\u026c",
        0.0
      ],
      [
        "y\u025c",
        0.0
      ],
      [
        "b\u02b2",
        0.0
      ],
      [
        "\u02512",
        0.0
      ],
      [
        "s\u032a",
        0.0
      ],
      [
        "ai\u025c",
        0.0
      ],
      [
        "\u03c7",
        0.0
      ],
      [
        "\u0250\u0303\u028a\u0303",
        0.0
      ],
      [
        "1",
        0.0
      ],
      [
        "\u02594",
        0.0
      ],
      [
        "y\u00e6\u025c",
        0.0
      ],
      [
        "a2",
        0.0
      ],
      [
        "\u0268\u02d0",
        0.0
      ],
      [
        "t\u032a",
        0.0
      ],
      [
        "iou\u025c",
        0.0
      ],
      [
        "u\u0303",
        0.0
      ],
      [
        "on\u0261\u025c",
        0.0
      ],
      [
        "a\u0268",
        0.0
      ],
      [
        "i\u025b2",
        0.0
      ],
      [
        "\u0254\u0268",
        0.0
      ],
      [
        "\u0251u\u025c",
        0.0
      ],
      [
        "o\u031e",
        0.0
      ],
      [
        "ei2",
        0.0
      ],
      [
        "iou2",
        0.0
      ],
      [
        "c",
        0.0
      ],
      [
        "k\u02d0",
        0.0
      ],
      [
        "y2",
        0.0
      ],
      [
        "\u0256",
        0.0
      ],
      [
        "oe",
        0.0
      ],
      [
        "d\u02e4",
        0.0
      ],
      [
        "y\u025b\u025c",
        0.0
      ],
      [
        "\u0259\u028a",
        0.0
      ],
      [
        "S",
        0.0
      ],
      [
        "\u0261\u02b2",
        0.0
      ],
      [
        "on\u02612",
        0.0
      ],
      [
        "u\"",
        0.0
      ],
      [
        "ei\u025c",
        0.0
      ],
      [
        "\u0288",
        0.0
      ],
      [
        "\u026f\u1d5d",
        0.0
      ],
      [
        "iou5",
        0.0
      ],
      [
        "dZ",
        0.0
      ],
      [
        "r\u031d\u030a",
        0.0
      ],
      [
        "i.2",
        0.0
      ],
      [
        "tS",
        0.0
      ],
      [
        "s^",
        0.0
      ],
      [
        "\u029d",
        0.0
      ],
      [
        "y\u02595",
        0.0
      ],
      [
        "i\u0251\u025c",
        0.0
      ],
      [
        "u\u02595",
        0.0
      ],
      [
        "pf",
        0.0
      ],
      [
        "\u0268u",
        0.0
      ],
      [
        "i\u02512",
        0.0
      ],
      [
        "ou2",
        0.0
      ],
      [
        "\u0259r2",
        0.0
      ],
      [
        "f\u02b2",
        0.0
      ],
      [
        "ai2",
        0.0
      ],
      [
        "r\u031d",
        0.0
      ],
      [
        "u\u0259\u025c",
        0.0
      ],
      [
        "\u0273",
        0.0
      ],
      [
        "\u0259\u0268",
        0.0
      ],
      [
        "ua5",
        0.0
      ],
      [
        "u\u026a",
        0.0
      ],
      [
        "\u027d",
        0.0
      ],
      [
        "b\u02d0",
        0.0
      ],
      [
        "yu5",
        0.0
      ],
      [
        "uo2",
        0.0
      ],
      [
        "y\u025b5",
        0.0
      ],
      [
        "l\u0329",
        0.0
      ],
      [
        "\u027b",
        0.0
      ],
      [
        "\u0259r\u025c",
        0.0
      ],
      [
        "\u0282",
        0.0
      ],
      [
        "i\u032a2",
        0.0
      ],
      [
        "ou\u025c",
        0.0
      ],
      [
        "ua\u025c",
        0.0
      ],
      [
        "a.",
        0.0
      ],
      [
        "a.\u02d0",
        0.0
      ],
      [
        "y\u00e65",
        0.0
      ],
      [
        "d\u02d0",
        0.0
      ],
      [
        "r\u0329",
        0.0
      ],
      [
        "ee",
        0.0
      ],
      [
        "\u026au",
        0.0
      ],
      [
        "\u0259r5",
        0.0
      ],
      [
        "i\u032a\u025c",
        0.0
      ],
      [
        "\u00e6i",
        0.0
      ],
      [
        "u:",
        0.0
      ],
      [
        "i.\u02d0",
        0.0
      ],
      [
        "t^",
        0.0
      ],
      [
        "o1",
        0.0
      ],
      [
        "\u026a^",
        0.0
      ],
      [
        "ai",
        0.0
      ],
      [
        "uei\u025c",
        0.0
      ],
      [
        "\u00e6\u02d0",
        0.0
      ],
      [
        "\u025b\u026a",
        0.0
      ],
      [
        "e\u0259",
        0.0
      ],
      [
        "i.",
        0.0
      ],
      [
        "\u0274",
        0.0
      ],
      [
        "ie",
        0.0
      ],
      [
        "ua2",
        0.0
      ],
      [
        "\u02511",
        0.0
      ],
      [
        "o4",
        0.0
      ],
      [
        "t\u0283\u02d0",
        0.0
      ],
      [
        "o:",
        0.0
      ],
      [
        "\u0251:",
        0.0
      ],
      [
        "u1",
        0.0
      ],
      [
        "N",
        0.0
      ],
      [
        "i\u032a1",
        0.0
      ],
      [
        "au",
        0.0
      ],
      [
        "y\u00e62",
        0.0
      ],
      [
        "u.",
        0.0
      ],
      [
        "q\u02d0",
        0.0
      ],
      [
        "y\u0259\u025c",
        0.0
      ],
      [
        "y:",
        0.0
      ],
      [
        "k\u02b0",
        0.0
      ],
      [
        "t\u0283\u02b0",
        0.0
      ],
      [
        "i\u028a",
        0.0
      ],
      [
        "sx",
        0.0
      ],
      [
        "o\u0303",
        0.0
      ],
      [
        "uo",
        0.0
      ],
      [
        "t\u02b0",
        0.0
      ],
      [
        "uai5",
        0.0
      ],
      [
        "b\u02b0",
        0.0
      ],
      [
        "u.\u02d0",
        0.0
      ],
      [
        "u\u02592",
        0.0
      ],
      [
        "\u028a\u0259",
        0.0
      ],
      [
        "d^",
        0.0
      ],
      [
        "s\u032a\u02d0",
        0.0
      ],
      [
        "yi\u025c",
        0.0
      ],
      [
        "d\u02b0",
        0.0
      ],
      [
        "r.",
        0.0
      ],
      [
        "oe:",
        0.0
      ],
      [
        "i1",
        0.0
      ],
      [
        "\u025f\u02d0",
        0.0
      ],
      [
        "yu2",
        0.0
      ],
      [
        "n\u02b2\u02b2",
        0.0
      ],
      [
        "i\u032a4",
        0.0
      ],
      [
        "uei2",
        0.0
      ],
      [
        "ts\u02b2",
        0.0
      ],
      [
        "\u0278",
        0.0
      ],
      [
        "i\u0303",
        0.0
      ],
      [
        "\u02514",
        0.0
      ],
      [
        "t\u032a\u02d0",
        0.0
      ],
      [
        "e\u0251",
        0.0
      ],
      [
        "u4",
        0.0
      ],
      [
        "e:",
        0.0
      ],
      [
        "ts\u02d0",
        0.0
      ],
      [
        "\u0288\u02b0",
        0.0
      ],
      [
        "\u0261\u02b0",
        0.0
      ],
      [
        "\u026f\u026f",
        0.0
      ],
      [
        "d\u0292\u02b2",
        0.0
      ],
      [
        "\u0282\u02b2",
        0.0
      ],
      [
        "X",
        0.0
      ],
      [
        "\u0275\u02d0",
        0.0
      ],
      [
        "uai\u025c",
        0.0
      ],
      [
        "t\u0255\u02b2",
        0.0
      ],
      [
        "a\u0303",
        0.0
      ],
      [
        "t^\u02d0",
        0.0
      ],
      [
        "e\u0303\u02d0",
        0.0
      ],
      [
        "y\u025b2",
        0.0
      ],
      [
        "c\u02d0",
        0.0
      ],
      [
        "i.1",
        0.0
      ],
      [
        "\u025b\u028a",
        0.0
      ],
      [
        "d\u02e4d\u02e4",
        0.0
      ],
      [
        "d\u0292\u02d0",
        0.0
      ],
      [
        "i4",
        0.0
      ],
      [
        "\u0261\u02d0",
        0.0
      ],
      [
        "yi",
        0.0
      ],
      [
        "\u0255\u02b2",
        0.0
      ],
      [
        "\u025f\u02b0",
        0.0
      ],
      [
        "p\u02b0",
        0.0
      ],
      [
        "d\u0291\u02b2",
        0.0
      ],
      [
        "yu\u025c",
        0.0
      ],
      [
        "ua1",
        0.0
      ],
      [
        "ua4",
        0.0
      ],
      [
        "\u00e6i\u02d0",
        0.0
      ],
      [
        "\u0250\u0250",
        0.0
      ],
      [
        "ui",
        0.0
      ],
      [
        "iou1",
        0.0
      ],
      [
        "\u028a\u02d0",
        0.0
      ],
      [
        "a1",
        0.0
      ],
      [
        "iou4",
        0.0
      ],
      [
        "c\u02b0",
        0.0
      ],
      [
        "i\u025b1",
        0.0
      ],
      [
        "y\u02592",
        0.0
      ],
      [
        "\u0256\u02b0",
        0.0
      ],
      [
        "e\u0303",
        0.0
      ],
      [
        "\u0292\u02b2",
        0.0
      ],
      [
        "\u00e4\u00e4",
        0.0
      ],
      [
        "\u0259r4",
        0.0
      ],
      [
        "i\u02d0\u02d0",
        0.0
      ],
      [
        "\u026a\u02d0",
        0.0
      ],
      [
        "i\u02511",
        0.0
      ],
      [
        "\u0259r1",
        0.0
      ],
      [
        "\u0153\u02d0",
        0.0
      ],
      [
        "\u00f8i",
        0.0
      ],
      [
        "\u026au\u02d0",
        0.0
      ],
      [
        "c\u02b0c\u02b0",
        0.0
      ],
      [
        "\u0259\u02d01",
        0.0
      ],
      [
        "i\u02d01",
        0.0
      ],
      [
        "\u0169",
        0.0
      ],
      [
        "k\u02b0\u02d0",
        0.0
      ],
      [
        "o\u031eo\u031e",
        0.0
      ],
      [
        "x\u02b2",
        0.0
      ],
      [
        "ou1",
        0.0
      ],
      [
        "i\u025b4",
        0.0
      ],
      [
        "e\u031ee\u031e",
        0.0
      ],
      [
        "y1",
        0.0
      ],
      [
        "dz\u02d0",
        0.0
      ],
      [
        "d\u02b2\u02b2",
        0.0
      ],
      [
        "d\u02b0\u02d0",
        0.0
      ],
      [
        "\u026f\u1d5d\u026f\u1d5d",
        0.0
      ],
      [
        "l\u02d0",
        0.0
      ],
      [
        "uo1",
        0.0
      ],
      [
        "i.4",
        0.0
      ],
      [
        "i:",
        0.0
      ],
      [
        "y\u025b5\u02b2",
        0.0
      ],
      [
        "a4",
        0.0
      ]
    ]
  }
}